[PAD]
[EOS]
[UNK]
[CLS]
[SEP]
[MASK]
و
##ی
در
به
##ه
از
##،
که
##ن
##م
##ت
را
با
می
بود
##د
##ر
این
##ل
##ش
##ان
##ا
های
##.
هم
ها
است
شده
غذا
برای
خوب
##س
##ب
##ک
خیلی
عالی
ای
آن
بر
##ری
تا
##ات
##:
یک
##ف
خود
##ار
##ین
##و
کیفیت
##ز
##ق
او
من
##ون
سال
##ند
##ح
##ست
##ع
ایران
روز
##گ
##نی
##ای
##ي
##لی
##ید
دو
##ده
##تر
ولی
##)
##خ
ما
رو
##را
#
کرده
##ج
(
تو
##ين
اما
##سی
بی
##های
اين
##یی
سفارش
سر
##ط
##ور
.
##e
##لا
دست
##یم
کار
کرد
بود.
ب
##i
بد
##می
##تی
##اه
بسیار
##دی
ن
##یت
شهر
##رو
شد
##-
##۰
نا
##t
##تا
کم
رسید
گفت
##با
##ام
##ال
خوشمزه
«
##یا
##يد
##ها
يک
،
##پ
کشور
##اد
آمریکا
##کی
##s
ع
تر
##غ
هر
##وی
ف
یا
پس
پیتزا
فقط
وا
##انی
"
سی
ق
کن
قرار
آمريکا
ر
کا
##ستان
##گی
##»
##گر
##a
وی
##o
##مان
##زی
سرد
##نه
م
دولت
واقعا
پ
##ئی
##نا
است.
آ
طعم
##یه
جمهوری
قیمت
ال
ماه
##بی
نظر
مي
ام
##فی
##در
داشت
##تون
##جا
مت
##بر
##ظ
##ما
##ير
اصلا
##وم
##چ
##۱
##/
نام
اس
نبود
##قا
##يه
نفر
##دا
##ض
پیک
داده
جا
##زا
مثل
ل
گزارش
اند
##l
بار
##لو
همه
عراق
مورد
ج
پر
##۵
ه
نسبت
##ص
باز
##دو
نمی
##فا
##به
ش
سو
##ك
کو
##يت
کل
گفته
##گان
##شی
##ول
##رس
بعد
۲
##5
##از
حال
##m
مو
پیش
امروز
گرم
همیشه
آقای
##یس
##رد
##ث
##يا
##0
مرغ
##سا
سازمان
##گاه
##ذ
##c
روی
سه
1
گ
##h
دار
زمان
خبر
##۶
##۷
##ره
مح
##تو
##ی،
دیگر
پی
ک
ی
ت
##۴
خواهد
س
بود،
غ
##۹
##۲
چ
چند
##ته
شود
داد
##1
##۸
شا
فر
##ود
د
##اس
نو
##نده
حجم
نیز
##کو
##ران
##حا
آب
اعلام
دارد
##r
##۳
گو
گروه
##؛
##یر
استفاده
##آ
##شت
##u
یه
##من
##وا
مر
۱
##9
•
ح
قبل
ارسال
ساعت
ك
خ
ص
##d
شرکت
##"
##اری
دی
تع
ات
##رت
ممنون
رستوران
##2
ان
قا
##کا
حا
بین
کباب
##ري
##که
مج
عنوان
ا
##فت
کر
خا
##پا
##نت
بیشتر
##جو
بوده
دور
دا
##له
##نو
ساخت
##سه
##p
بسته
پا
##اب
فرا
##يل
##لي
##مه
ايران
جنگ
##جه
##قی
نداشت
##یق
سا
۱۹
مزه
ار
بن
یکی
##داد
##6
##يم
مش
##ى
کند
##یان
##وه
سس
##مل
لا
##ضا
مردم
برنامه
بو
اول
۳
##هی
##يان
اینکه
##کن
##7
##8
##خت
مس
تن
عل
##وان
صورت
برنج
##,
حس
##نگ
مقامات
نخست
##شم
بندی
شی
##3
اد
##مو
رئیس
کی
##فر
##اي
تج
##جر
##انه
اش
##يس
بودن
خو
##ئ
اسلامی
کنند
اگر
##هر
ض
ده
نق
گذشته
##4
تحویل
تهران
##عه
فا
عا
##هم
جای
خوش
##سو
##زه
##عی
##یل
تق
##تن
##یک
آی
اک
##عت
##بان
باید
سل
پنج
##یب
بالا
بل
##شد
تازه
بهتر
خرید
جوجه
##عا
حمله
##د.
سن
##رم
مع
راه
بزرگ
##او
هزار
خواست
۱۳
وجود
توان
تح
کمی
قر
##اح
مط
عمل
##وس
کاملا
صد
##w
##دن
هست
انتخابات
##د،
ز
نش
است،
ته
برا
##چه
##زم
آنها
چیز
سلام
تب
داخل
##اره
زن
-
پرو
##خا
##پر
تک
نه
##b
لی
برخورد
وزیر
شدن
##شا
##سر
##مر
##g
توسط
انجام
توجه
##گو
بودم
##کس
زیاد
##کار
کشته
شنبه
پي
گوشت
##سم
##n
قو
وزارت
##شنبه
داشته
فروش
##ئو
شب
سیب
##تان
پار
چه
گرفته
نم
باشد
آم
موقع
بودند
درباره
دم
دیر
منطقه
زود
گر
##کت
##شه
پو
طول
پيش
شما
۴
خورد
##نس
##بار
زمینی
جان
##رب
##ژ
۵
مناسب
شد.
دوم
دید
##نان
راضی
دستم
##رن
##ایی
همراه
چهار
آس
##وب
##%
##دار
ست
##\u
##پی
ساندویچ
مد
نک
عم
مخ
نشان
##زش
نظامی
گا
کس
##۰۰
زیر
غذای
پول
##یش
منا
نت
شاه
##گا
پل
تل
2
برد
گرفت
همچنین
##y
بازار
خل
##رک
##لب
##مي
چن
چی
قابل
##زد
رفت
جن
فوق
رس
هیچ
کردند
اروپا
پایین
حد
ری
##هد
محمد
##تل
خوبی
جو
ملی
##يند
فل
##نون
رهبر
وزير
هستند
هفته
##ه،
اب
ني
موا
##غا
امور
بخش
جهان
اي
افغانستان
##یو
مهم
بازی
روس
کره
جز
همین
گرد
##گرا
اع
##تم
بدون
##جی
سریع
##اف
##يز
##کان
##دم
بخ
اف
شر
اح
کردن
ادامه
میان
استان
علی
ملل
##بت
اسنپ
اتمی
##وز
نون
تمام
نیست
مجلس
ایرانی
خارجه
##شون
هایی
ترین
نر
جدید
سپ
##یج
##وار
خر
مواد
##مد
محل
مق
##خو
##خوا
##!
بس
ریا
##رش
اص
متو
آورد
مه
دریا
حدود
کش
##ضی
حقوق
##مت
خط
##بو
اه
##الی
بي
پاس
بگ
##است
ي
تاریخ
##ترین
##دان
نشده
ترامپ
##ونی
##رات
اق
##k
پای
##کر
صف
کنید
بیا
کلی
سي
تی
سف
##اق
مسا
آغاز
مرکز
غیر
هوا
حزب
قانون
مک
##مین
دادم
##صو
يا
##اتی
اقدام
وارد
ژا
##صر
ذ
##صا
رای
##فو
##ستی
زندان
داغ
سالاد
##يک
مشا
##حی
ژ
عکس
نی
عد
##بال
رئيس
نان
فود
عرب
ديگر
متحد
##يب
##ظر
اسرائيل
مقدار
جمع
المللی
##شو
العاده
انگ
##شار
افزایش
دل
##سب
##بل
##زار
برگزار
##ستم
سیا
##عد
تغییر
##رز
کمک
موج
دان
اور
موس
دادن
یکم
اج
سرباز
شورای
اخ
##نم
دانش
نفت
جهانی
اعتراض
##شان
شمالی
دلیل
تنها
##صل
چا
##مع
##S
##یز
صن
ول
##دي
##خی
نيز
##هن
بش
مرد
باش
چین
ظ
دهد
##چی
متاسفانه
تعداد
بين
واقع
کلا
کنار
##عل
ندار
گل
##صد
دیگه
تش
برخی
خواه
بیش
چون
ارتش
آل
##جم
##ظا
پنیر
##يو
##اک
##ن،
افز
##پو
##کل
رش
خام
درصد
##وند
برابر
حضور
##تب
شور
دوست
بوش
تأ
لو
شمار
طرف
##الت
##پن
اساس
دانشگاه
انت
مشتری
تخ
##رده
انتقا
##(
بازداشت
گیر
حقیقی
گرا
##بع
همچن
زی
##گز
کرد.
مب
##رف
جر
##سال
كه
هند
##وک
نها
##دید
فیلم
رسان
ترکی
بح
##مز
زبان
گويد
##اني
حر
روا
نزدیک
شود.
آخر
مص
غرب
جد
زمین
جمله
نماد
##نک
##سل
##ارت
سوی
مقام
دقیقه
میلیون
طور
##وت
یو
##...
مذاکر
##؟
جل
قطع
بع
سهم
##قد
خورش
##اط
پرس
۶
سنگ
مسل
معر
##سن
وس
##A
نیم
##ar
##هو
۱۰
افت
اون
ظرف
دق
تس
##وری
##خته
##ژا
تصو
##v
##زن
دوره
تومان
##صی
۲۰۰
اعت
اولین
##حه
اجرا
##شک
مشکل
رد
کمتر
ور
اتحاد
پاي
برگر
##اخ
##فق
سای
##أ
انتظار
##بط
قب
اط
بيش
فو
##فه
##طی
آو
خشک
سخن
مدت
##سته
طر
رق
##an
گذار
منت
اطلاعات
مقا
نمایند
##خر
##ذار
کشورهای
##طا
##کش
بنا
ورود
وضع
مصر
هی
3
دارند
فرستاد
##گیری
روش
امنیت
باشه
##قه
##خش
جوا
آلمان
##گون
دي
##ذی
افراد
پاکستان
##یما
دلار
شن
بیشتری
##ند.
فرو
تاخیر
##قو
مجموع
##طر
##یع
معاملات
نوشته
متحده
##کم
زا
##حد
عضو
رود
هدف
مقابل
##برا
مار
مدا
ترک
پن
https://
نیروهای
سع
وقت
##ائ
##f
دستگ
ارزش
گوید
مسئول
##ثی
##ینی
امنيت
میکن
**
کال
لب
##نش
میر
گذ
##یری
چرا
سفر
درگ
بمب
۹
##داشت
بند
حتی
کاهش
شدند
##in
##ثر
توی
##سان
فرانسه
##er
معت
##ازه
مخصوص
##ورد
شک
طرح
۷
##رض
تواند
میدا
تما
سم
##وي
##روز
##وف
##وع
##یده
##م،
##مای
قد
کتاب
آر
##شق
##زو
درم
##اشت
الم
##فع
سب
##ژی
تحت
بت
پد
فرد
آزاد
عب
##ابت
اصلی
هنوز
کامل
##یط
تیم
دفاع
گفتگو
##چا
صلح
فعال
نيروهای
سوم
نز
غذاها
##بي
##هام
فارس
باعث
##مون
##م.
مخالف
زد
احتمال
هو
##ذا
##طق
هن
زر
انتخاب
تاک
حو
##برد
عر
تف
پیشنهاد
۸
دون
مث
##رون
کشت
##پل
اخیر
یافت
مل
معا
زندگی
جدا
اندازه
هفت
##مند
##اده
الله
##قف
طا
چي
##on
دنبال
##ذر
پایان
اظهار
رسم
خش
##یف
نخو
##يق
##نز
حکومت
فیل
##فن
صح
کشید
عبا
نیا
جمعه
شرق
##ئل
سوخته
توافق
##رمان
نقش
منتشر
نظا
وید
نوا
رون
باب
##کرد
##ظی
##طور
نگ
##جاد
شش
گذاشته
هواپ
سیاسی
بیمار
مرگ
##جان
##قدر
استر
رن
##دگ
##چین
آتش
ارد
##..
##بود
چرب
طی
زنان
حمایت
##ایت
شد،
##ا،
مرا
مبا
تشکر
قارچ
پخت
##حل
شورش
محا
##آم
بریتانیا
دهند
آش
##00
##داران
##سط
نگا
ث
شخص
##ـ
##ستا
ابر
حل
اسل
ممکن
خيلي
##لت
گستر
خمی
##هب
##دش
فس
اثر
تلاش
موضوع
ري
علا
ماد
سخنگوی
نگر
دارای
ساله
ملا
قدرت
فلسطين
##لن
صدای
درد
وقتی
ریخت
##ژه
اخت
موفق
مالی
باره
##C
روسیه
سابق
داشتن
خدا
امت
سود
تصم
فرماند
درج
##دام
پرداخت
##رفت
شکل
شو
سرخ
حاضر
##مور
ویژه
شوند
خان
##ند،
##ر،
زیادی
تولید
##ترا
##عف
سرو
اقتصادی
##لات
##شن
تحق
##اتور
خیا
صاد
##نامه
هزینه
##زند
جنوب
##مب
حملات
نوع
جه
شمال
حف
شبکه
زي
مرز
##I
##ندگان
مسابق
##ودی
خس
فوت
خانواده
علیه
..
##وش
خوان
##at
##هان
خارج
پیر
معم
##مبر
##تری
نبا
محت
##لف
تای
##شته
کارگر
##حم
##ان،
حرف
##لس
##زل
کننده
نوشابه
##زي
فره
روزنامه
هنگام
##سي
##خانه
##نگی
میلاد
ثب
گون
##دل
##وئ
آماد
موند
بررسی
۱۲
##اج
تم
##کرا
##اند
نوش
##T
سوپ
##!!
شکست
متهم
برج
##بور
##لد
کوچک
۲۰۱
طب
##منو
شدت
شناس
کان
مستق
حک
جنوبی
رفتار
سفی
##M
مربوط
##سف
##ء
پشت
##فته
##کتر
دوب
ارتباط
اختلا
یاد
اسرائیل
دادگاه
اشاره
میلیارد
##داری
مید
توضیح
##رج
رب
جامع
لطفا
##صله
ميگويد
ارز
احمد
##خص
قل
جری
##يی
##لم
عموم
مغ
ترو
##–
نمود
دن
درخواست
مختلف
سان
نص
خاطر
اشت
آد
##اش
زم
##يي
ضمن
مانند
طل
##ir.voanews.com/a/
نیرو
سهام
##قر
##te
سازی
##شنگ
##ییی
##ra
بدی
(به
جلو
همان
##P
درا
مسی
##رانی
کند.
همکار
زمانی
زده
##شنا
چهارشنبه
##صوص
۲۰
##ریب
پرزيدنت
دوشنبه
فض
ماند
##دها
مدی
تلو
آرا
محدود
استق
##عو
پلو
سط
تشکیل
##نج
انس
مشخص
باق
حق
خانه
آموز
ابت
سوریه
##اسی
##يری
بهترین
##ااا
4
##نگا
روغن
##عات
انقلاب
درست
##ولی
طبق
مها
مجا
شع
##ارا
حما
بانک
آمریکایی
خارجی
گوی
##بست
کوتاه
هشت
کود
##مش
افتضاح
##لمان
##دال
##فران
البته
آزادی
انفجار
پیدا
کانا
##ديد
خدم
جمهور
ديد
لح
ند
لذ
##ئت
محک
میزان
نامه
خواهند
##شگ
تند
بسيار
دخ
۱۸
معاو
آز
عالي
##هده
سران
اگ
حی
سبزی
ارائه
تيم
آنا
##E
##زان
شامل
آمده
فکر
##مپ
نمای
##رگ
##لاف
تحریم
خرو
##ه.
میشه
##تش
##٠
دف
تص
سرما
مدیریت
##ou
اضافه
روحانی
کوبیده
##بد
امی
میگ
شرا
هسته
موش
اعضای
واکنش
سوخاری
توص
برن
##تي
حالی
ایالات
شیری
۱۵
بغ
##ادی
##راف
پلیس
'
##لبا
بخشی
گرفتن
تروريس
اجتماع
قی
بسیاری
همي
##.html?nocache
معمولی
فی
##يف
##)،
انگلیسی
##en
درو
##دین
پیام
بوی
##دد
##غو
##میا
##مار
قه
##بین
الا
##تخ
كيفيت
##کنا
فعالیت
خانم
##ساز
##وو
یع
برو
امیدوار
عو
##یزی
خبرگزاری
##زید
##تص
##بن
رض
انرژی
اندا
آف
بشر
سپاه
مراسم
##سک
بازگ
دفعه
##ستر
ساز
رهبرا
##N
##١
##[
##٫
##B
##D
##·
##F
##ؤ
##'
##V
##O
##٢
##R
##H
##]
##٬
##?
##z
##L
##W
##G
##\
##{
##x
##K
##٣
##q
##U
##j
##٪
##;
##}
##ة
##٩
##٥
##J
##٤
##@
##…
##*
##′
##&
##Y
##٨
##٧
##″
##٦
##ۀ
##《
##X
##Z
##Q
###
##«
##—
##ա
##а
##“
##”
##إ
##é
##о
##и
##ٱ
##ە
##ˈ
##е
##р
##н
##ն
##ə
##α
##ր
##ā
##с
##ո
##ο
##к
##ς
##в
##ի
##л
##ε
##Ø
##λ
##т
##ե
##’
##ν
##ü
##ρ
##‘
##ہ
##ے
##յ
##κ
##ι
##י
##б
##『
##ٴ
##ﺎ
##ı
##τ
##ھ
##г
##†
##ւ
##ו
##Ù
##π
##š
##տ
##σ
##д
##á
##у
##м
##η
##ō
##ﻮ
##ö
##ڪ
##ר
##ç
##â
##ь
##β
##ч
##ﺑ
##й
##ێ
##ē
##я
##日
##կ
##μ
##ä
##ց
##è
##ս
##ī
##本
##Œ
##ה
##ó
##δ
##ﺩ
##θ
##ά
##א
##ɪ
##ל
##ί
##թ
##í
##ש
##ڵ
##§
##र
##ό
##Հ
##Ա
##ۆ
##С
##ﻣ
##ﺮ
##ﺍ
##ڕ
##ב
##γ
##Û
##հ
##υ
##ﺭ
##ω
##ﻪ
##К
##մ
##գ
##п
##ﺳ
##מ
##վ
##х
##ş
##ﻟ
##‼
##ګ
##æ
##》
##ת
##դ
##ד
##ы
##з
##ğ
##А
##Δ
##ː
##ﻧ
##ﺪ
##М
##ʾ
##Б
##č
##न
##ﻴ
##զ
##Р
##ñ
##ք
##պ
##ղ
##լ
##ʃ
##ê
##ẖ
##ן
##ū
##ﯿ
##ע
##ם
##ɛ
##ẙ
##ẘ
##ẗ
##ח
##և
##П
##φ
##म
##נ
##ш
##έ
##ﯾ
##Մ
##ή
##É
##﴿
##द
##à
##ﺷ
##ﺘ
##В
##ﺧ
##‡
##Ս
##Π
##ﺗ
##中
##ק
##²
##ი
##स
##क
##Σ
##ô
##ﻤ
##⁉
##ა
##Գ
##î
##ﺖ
##ह
##չ
##շ
##И
##Д
##Α
##ɔ
##ɒ
##ﯽ
##і
##ц
##Κ
##ʁ
##ﻭ
##﴾
##ე
##ल
##Т
##χ
##İ
##ﻨ
##ג
##ł
##ú
##ß
##Ú
##ﻫ
##ﺴ
##۔
##ύ
##Μ
##ª
##国
##Խ
##ʲ
##Ş
##ﻠ
##ﷲ
##‚
##բ
##Ե
##Н
##Г
##ɾ
##ɡ
##Ç
##ﻢ
##র
##त
##פ
##Կ
##ж
##ʒ
##ﻲ
##ﻥ
##ﮐ
##文
##ס
##ŋ
##ज
##צ
##խ
##Ω
##Λ
##ɑ
##ﻳ
##ﻩ
##ﻌ
##ー
##Ἀ
##ს
##რ
##ম
##य
##ब
##ۊ
##ˆ
##ć
##ø
##ﻔ
##ﮔ
##ﭘ
##会
##ლ
##ग
##Վ
##Լ
##Ε
##ʊ
##³
##ﻞ
##ﺰ
##ﺯ
##式
##天
##大
##„
##ர
##ז
##Պ
##ё
##Τ
##ˌ
##ë
##）
##（
##ﻗ
##ﺒ
##社
##ল
##ন
##श
##व
##प
##כ
##փ
##ծ
##Տ
##ф
##Л
##ξ
##Ν
##Β
##ɐ
##ś
##Á
##株
##‹
##ო
##ன
##ব
##ώ
##Ā
##ý
##Ü
##ﻼ
##ﺬ
##』
##›
##च
##अ
##Դ
##ј
##ю
##Γ
##ﻛ
##ﻓ
##ﺸ
##ﺏ
##市
##司
##ṣ
##თ
##হ
##भ
##ܝ
##ٹ
##ї
##Χ
##ă
##ð
##ì
##ã
##¶
##ﻋ
##ﺣ
##長
##レ
##ḫ
##ம
##দ
##ट
##ܐ
##ף
##Բ
##Ф
##Φ
##ʻ
##ɨ
##ò
##å
##Ö
##ﻦ
##ﻃ
##ﺕ
##平
##公
##三
##ト
##シ
##ῖ
##ῆ
##ḥ
##მ
##ख
##ڤ
##ڈ
##ռ
##Շ
##Թ
##ћ
##Ι
##Θ
##ʔ
##ž
##Š
##œ
##Å
##：
##ﺻ
##ﺵ
##ﺨ
##道
##県
##永
##山
##家
##上
##一
##ン
##ス
##い
##‐
##Ἰ
##ṭ
##ṃ
##უ
##ნ
##ไ
##ย
##ท
##வ
##ச
##ত
##জ
##ष
##څ
##ջ
##Ն
##қ
##Я
##Ш
##У
##ɣ
##ń
##Č
##Â
##ﻡ
##ﺱ
##ﺁ
##ﯼ
##국
##皇
##田
##安
##名
##元
##代
##ッ
##タ
##‑
##ῦ
##ᵻ
##ქ
##ვ
##๑
##า
##ള
##ല
##യ
##മ
##દ
##স
##শ
##फ
##ध
##ड
##٭
##է
##Ջ
##Ղ
##Է
##ҳ
##О
##ζ
##ʿ
##ʼ
##ɲ
##ǰ
##ǎ
##Ə
##Ž
##ź
##Ŝ
##ù
##ï
##µ
##ﻬ
##ﻏ
##ﻆ
##ﺿ
##ﺼ
##ﺟ
##한
##語
##海
##康
##小
##寿
##和
##体
##ュ
##テ
##カ
##、
##‿
##※
##ἀ
##ế
##ṛ
##Ḥ
##დ
##ბ
##ನ
##த
##க
##ન
##ਸ
##য
##ক
##थ
##ܬ
##ܡ
##ܘ
##ٲ
##ך
##ֆ
##ъ
##щ
##Ю
##Э
##Ц
##ʂ
##ɹ
##õ
##ﻻ
##ﻍ
##ﻊ
##ﺲ
##ﺜ
##ﮕ
##ﮏ
##조
##성
##선
##대
##ꦮ
##體
##集
##車
##西
##繁
##简
##立
##科
##百
##球
##泰
##治
##河
##汽
##水
##正
##時
##明
##技
##戦
##德
##後
##工
##州
##川
##島
##峰
##学
##乐
##ル
##ム
##マ
##セ
##ォ
##ウ
##し
##•
##ὄ
##ὁ
##ἐ
##ἄ
##ḗ
##ḍ
##ᴄ
##ტ
##კ
##ಕ
##ப
##ந
##મ
##ਨ
##আ
##आ
##ܠ
##ۃ
##ڐ
##ט
##׃
##ժ
##Օ
##э
##З
##Е
##ϊ
##Ρ
##Ο
##ΐ
##ɢ
##ŝ
##Ś
##ř
##Ń
##ę
##đ
##û
##Ó
##Ñ
##Æ
##À
##¹
##，
##ﻱ
##ﻚ
##ﺠ
##ﴽ
##ﮓ
##ﮑ
##ﭪ
##ﭙ
##회
##주
##원
##어
##ꦗ
##鮨
##鮓
##部
##郎
##足
##見
##蓮
##航
##自
##股
##經
##第
##福
##石
##的
##白
##界
##港
##法
##業
##林
##朱
##朗
##新
##徳
##弘
##寇
##宗
##子
##團
##周
##卦
##八
##健
##個
##保
##仮
##仁
##井
##世
##・
##ラ
##ソ
##ケ
##キ
##イ
##ィ
##ん
##る
##の
##す
##〽
##ⴰ
##‰
##ᾶ
##ὕ
##Ἄ
##ệ
##រ
##ძ
##อ
##ษ
##ಡ
##జ
##ஸ
##ழ
##ங
##સ
##ર
##ਹ
##ਰ
##ਗ
##প
##ড
##খ
##উ
##ई
##ݟ
##ܢ
##ڠ
##ڟ
##ړ
##ڑ
##ڌ
##ճ
##ձ
##՞
##Ք
##Չ
##Ո
##Ծ
##Զ
##Ө
##ұ
##Қ
##Ж
##Ј
##ϒ
##ψ
##Ξ
##Ζ
##Ώ
##Ί
##Ά
##ʹ
##ʷ
##ʰ
##ʎ
##ʋ
##ɵ
##ɕ
##Ƞ
##ș
##ǐ
##Ƥ
##Ɵ
##Ɗ
##Ƈ
##ų
##Ł
##Ď
##ą
##Ă
##ÿ
##Ò
##Î
##Ê
##È
##ﻝ
##ﻜ
##ﻘ
##ﻖ
##ﻕ
##ﻐ
##ﻂ
##ﺶ
##ﺔ
##ﺀ
##ﮒ
##ﮎ
##ﭽ
##ﭼ
##ﭬ
##제
##정
##전
##장
##이
##영
##삼
##비
##ꦭ
##ꦤ
##青
##隊
##陳
##院
##限
##际
##野
##重
##鄭
##通
##豊
##諸
##話
##製
##虎
##蘭
##藏
##菱
##英
##船
##臣
##联
##群
##网
##紀
##章
##空
##穆
##発
##症
##画
##理
##珠
##王
##源
##温
##浙
##浄
##派
##洗
##江
##母
##武
##根
##東
##来
##村
##李
##朝
##有
##月
##暦
##星
##昌
##族
##教
##敏
##拳
##所
##成
##憲
##想
##影
##廣
##座
##年
##宮
##字
##姫
##太
##夢
##基
##城
##國
##同
##合
##南
##华
##動
##光
##候
##俱
##信
##俊
##便
##リ
##ャ
##プ
##ビ
##ド
##ツ
##ジ
##グ
##ク
##ガ
##エ
##ゅ
##な
##と
##て
##た
##き
##が
##お
##ⵜ
##ⵓ
##ⵎ
##ⲉ
##⟩
##⟨
##ₚ
##₂
##ⁿ
##ῶ
##ὴ
##ὰ
##Ὕ
##ὔ
##ἴ
##Ἡ
##Ἠ
##Ἔ
##ἅ
##ἁ
##ẓ
##Ṣ
##ṇ
##ḿ
##Ḿ
##Ḍ
##ᴗ
##ᠦ
##ម
##ት
##ር
##ხ
##შ
##ფ
##პ
##გ
##ວ
##ຕ
##ร
##ภ
##ก
##ര
##ന
##ത
##ಠ
##డ
##క
##ய
##ண
##ட
##ஜ
##ର
##વ
##ક
##ਮ
##ਬ
##ਚ
##ਘ
##ਆ
##গ
##ই
##অ
##ठ
##ञ
##घ
##इ
##ܫ
##ܪ
##ܩ
##ܣ
##ܟ
##ܛ
##ܕ
##ڗ
##ڋ
##ډ
##ڀ
##ټ
##օ
##Ֆ
##ә
##ҷ
##ү
##ң
##ҡ
##Ғ
##љ
##Ч
##Х
##І
##Η
##Έ
##ʝ
##ʘ
##ʌ
##ɴ
##ɬ
##ɤ
##ɗ
##ɖ
##ɓ
##ț
##Ǹ
##Ǥ
##ǃ
##Ư
##ƥ
##ƞ
##ƈ
##ů
##Ō
##ň
##Ĵ
##Ī
##ě
##ė
##Ē
##Đ
##Ċ
##Ć
##Ä
##¿
##¾
##𐭯
##𐭮
##𐭫
##𐭪
##𐭩
##𐭠
##ｲ
##ﻑ
##ﻉ
##ﻇ
##ﻄ
##ﻀ
##ﺽ
##ﺤ
##ﺢ
##ﺡ
##ﺞ
##ﺝ
##ﺐ
##ﺌ
##ﺋ
##ﺅ
##︶
##︵
##ﷺ
##ﯙ
##ﮪ
##ﭻ
##ﭐ
##희
##화
##현
##티
##택
##케
##최
##지
##준
##자
##일
##인
##의
##윤
##위
##애
##식
##산
##사
##부
##반
##민
##무
##말
##릉
##도
##년
##김
##구
##광
##고
##건
##강
##ꦪ
##ꦥ
##ꦠ
##ꦒ
##龙
##龍
##黃
##麗
##鹿
##鳥
##鲁
##高
##马
##香
##饼
##餅
##音
##霞
##電
##際
##隅
##陸
##陆
##阪
##队
##閻
##関
##长
##钱
##鎌
##錢
##錕
##鈴
##酒
##都
##那
##過
##進
##連
##近
##达
##辰
##轮
##车
##軸
##越
##貴
##论
##議
##論
##誠
##訓
##解
##视
##親
##覧
##覇
##衛
##術
##衆
##蛇
##蘇
##藤
##薬
##華
##莊
##芸
##花
##节
##色
##良
##舟
##臥
##脱
##脩
##能
##聖
##耕
##者
##耀
##羲
##美
##维
##络
##经
##續
##織
##總
##縛
##縄
##綺
##維
##統
##素
##紙
##納
##約
##系
##米
##篠
##筒
##竹
##競
##突
##稲
##種
##秋
##禄
##祭
##神
##眉
##益
##盆
##皐
##發
##町
##电
##生
##瑪
##玛
##玉
##狗
##特
##片
##爾
##熹
##照
##灣
##濱
##潤
##漱
##漢
##滿
##溥
##渤
##清
##深
##涅
##浜
##洵
##津
##洋
##泻
##泥
##沖
##汾
##氏
##殷
##死
##機
##横
##樂
##様
##楽
##極
##森
##棣
##棍
##棋
##栽
##柴
##柳
##枢
##果
##条
##杉
##术
##木
##晨
##昶
##昭
##春
##映
##昆
##时
##早
##旦
##方
##斗
##損
##控
##手
##截
##戊
##懿
##慶
##慰
##慕
##恩
##总
##思
##徽
##彦
##張
##弓
##度
##序
##庆
##広
##广
##常
##帝
##师
##嶋
##崎
##峨
##岸
##岡
##屋
##局
##将
##寛
##宝
##定
##宙
##宇
##宁
##婦
##威
##妃
##多
##夏
##复
##壯
##場
##埼
##圳
##地
##圣
##土
##圓
##团
##四
##啟
##商
##唐
##哈
##品
##味
##君
##吉
##号
##台
##可
##古
##取
##友
##厥
##原
##厚
##卧
##十
##區
##北
##勝
##効
##労
##功
##力
##剛
##制
##利
##内
##典
##六
##児
##兎
##先
##優
##偉
##係
##作
##住
##伏
##份
##仏
##亭
##京
##亚
##五
##争
##习
##九
##乙
##义
##主
##为
##临
##个
##东
##业
##丘
##下
##ヶ
##ヨ
##ョ
##ヤ
##モ
##ミ
##ホ
##フ
##パ
##バ
##ハ
##ヌ
##ナ
##デ
##ゾ
##サ
##コ
##ゲ
##ア
##ゞ
##ゑ
##ゐ
##れ
##り
##ら
##や
##も
##ふ
##ひ
##ち
##け
##ぐ
##ぎ
##え
##う
##〗
##〖
##ⵣ
##ⵛ
##ⵖ
##ⵔ
##ⵉ
##ⴽ
##ⲛ
##ⲙ
##Ɑ
##⅓
##ℳ
##ℓ
##ₙ
##ₕ
##ₑ
##ₐ
##⁋
##―
##‒
##ῴ
##ῳ
##Ῥ
##ῥ
##ᾷ
##ᾱ
##ὸ
##ὶ
##ὐ
##Ὀ
##ὅ
##ὀ
##Ἴ
##Ἱ
##ἶ
##ἰ
##ἡ
##Ἕ
##Ἓ
##ἑ
##Ἅ
##Ἁ
##ỷ
##Ự
##ồ
##Ẓ
##ẏ
##ṯ
##ṧ
##ṓ
##ṅ
##ḳ
##ḯ
##ḧ
##ḕ
##ḓ
##ḏ
##ḇ
##ḁ
##ᠺ
##ᠵ
##ᠲ
##ᠯ
##ᠬ
##ᠨ
##ᠢ
##ᠡ
##ᠠ
##អ
##ស
##ល
##ប
##ច
##ខ
##ក
##ᐤ
##ጵ
##ጣ
##ጠ
##ግ
##ዮ
##ያ
##የ
##ዘ
##ኢ
##አ
##ኛ
##ን
##ቆ
##መ
##ჯ
##ც
##ღ
##ໄ
##າ
##ະ
##ອ
##ລ
##ນ
##ທ
##ຍ
##ກ
##แ
##ะ
##ส
##ว
##ล
##ม
##ต
##ช
##ඝ
##വ
##പ
##೯
##ಹ
##ಸ
##ರ
##ಮ
##ಟ
##ಜ
##హ
##స
##ర
##మ
##ప
##న
##ஷ
##ஐ
##இ
##ஆ
##ଲ
##କ
##ଉ
##હ
##ય
##પ
##ધ
##જ
##ચ
##ગ
##અ
##ੜ
##ਲ
##ਭ
##ਧ
##ਤ
##ਣ
##ਡ
##ਖ
##ਕ
##ষ
##ভ
##ফ
##ধ
##ণ
##ঙ
##ण
##ढ
##झ
##औ
##ऋ
##ऊ
##उ
##ݝ
##ݚ
##ݐ
##ܨ
##ܦ
##ܥ
##ܚ
##ܙ
##ܓ
##ܒ
##ۻ
##ۺ
##ۥ
##ۓ
##ۍ
##ۂ
##ڼ
##ں
##ڬ
##ڨ
##ڞ
##ڔ
##ڎ
##ڇ
##ڃ
##ٺ
##ٸ
##ٮ
##ץ
##Ռ
##Յ
##Ճ
##Ժ
##ө
##ӣ
##Ә
##ӕ
##һ
##Һ
##Ҳ
##Ү
##ҫ
##Ҫ
##Ң
##Ҡ
##ҙ
##Ҙ
##ғ
##ў
##Ъ
##Щ
##Ϸ
##ϥ
##Ψ
##Υ
##ˤ
##ʺ
##ʐ
##ʄ
##ɸ
##ɧ
##ɟ
##ɜ
##ɚ
##ɋ
##Ɋ
##ȷ
##ȳ
##Ț
##Ș
##ǹ
##ǫ
##ǥ
##ǔ
##ǒ
##ơ
##Ɣ
##Ź
##ŷ
##Ů
##Ř
##Ŕ
##ő
##Ň
##ľ
##Ľ
##ĭ
##Ĥ
##ġ
##Ğ
##ĝ
##Ĝ
##ď
##ċ
##ĉ
##Ĉ
##Þ
##Ý
##Õ
##Ð
##Í
##~
##|
##`
##^
##>
##=
##<
##+
##$
##_
መ
ር
Ջ
正
케
ל
ḥ
த
时
ɜ
ﻪ
ﻓ
憲
ך
X
›
舟
자
ο
素
ɟ
バ
院
ₐ
ṇ
岡
良
უ
ں
〖
ἡ
ü
ǥ
制
х
け
ٺ
ਆ
ƞ
Ŕ
ス
泰
ﻇ
어
氏
ხ
택
總
&
Ĝ
・
ﻩ
ג
ν
ﺯ
ﺠ
山
ट
อ
ⁿ
ڇ
మ
解
ფ
习
ツ
ð
’
篠
港
峨
偉
%
건
ы
ɧ
仏
ﻼ
ڗ
ܓ
界
t
ያ
臣
友
衆
G
w
米
个
，
公
사
ന
Չ
工
ﺁ
ト
ប
ܟ
ć
Ҫ
文
²
法
٤
Ź
華
ﺷ
ε
반
那
କ
고
ơ
汾
主
ヤ
ġ
ҙ
إ
ڠ
!
ɗ
誠
柳
Ֆ
ª
ئ
ڞ
Է
美
道
ぎ
희
Կ
կ
总
ھ
ﻍ
漢
દ
и
ř
Մ
ء
ಟ
峰
張
競
論
в
జ
Š
福
؛
貴
g
И
న
კ
ﻜ
『
ঙ
‑
系
ζ
ミ
朗
c
ಡ
ɪ
ק
温
າ
长
内
ﺜ
‒
ḫ
ὰ
У
森
Ț
ժ
敏
ב
弘
ς
O
ड
Ò
ó
σ
³
维
څ
村
Դ
錢
I
٣
Ι
ۂ
ﺻ
可
M
հ
芸
⁋
ὸ
ल
汽
Â
ὅ
ŝ
過
ړ
ǫ
Í
钱
集
Ъ
大
τ
ब
ô
š
ம
関
虎
ﺑ
西
ங
ɵ
日
á
ж
ர
u
г
视
ﺲ
Ң
`
Ş
ﺮ
फ
ﯽ
ܬ
ḗ
ϊ
复
ﺳ
术
ة
የ
उ
ū
L
D
ว
ḇ
ꦪ
Ὕ
Ճ
Շ
‐
ɤ
ܐ
স
ǃ
y
C
„
ﻃ
﴾
ὄ
ე
發
昌
酒
照
ﯾ
ﺨ
八
დ
フ
Ն
ﻞ
乙
Ῥ
ī
û
後
連
ᵻ
神
ḕ
船
ኛ
ヶ
լ
）
Ğ
ﻬ
π
羲
ῶ
吉
郎
Ự
한
栽
仁
祭
派
ᴗ
Œ
ⵛ
۔
シ
町
ﻌ
ﻐ
労
餅
ł
蓮
宇
ﺣ
ਗ
ナ
鮓
W
Ἱ
ჯ
Э
व
ܦ
ນ
Щ
ﷺ
អ
城
ڋ
դ
¶
Һ
ď
Տ
ݐ
Ρ
ﺤ
ồ
љ
ǎ
ジ
ա
ಸ
平
Ζ
Ċ
ڀ
ਧ
ù
進
ڈ
ډ
︵
ﻔ
ė
ﯼ
Ď
ະ
ನ
ﻧ
೯
』
ш
ә
特
ۥ
ク
ҳ
ப
ș
陆
ܙ
織
″
ﺰ
ƥ
П
保
6
宙
教
中
Ł
ʂ
号
]
ἴ
$
蛇
方
圣
先
ů
Վ
:
霞
小
Б
Ň
Ե
Ɣ
ڪ
慕
ಹ
Ц
प
m
இ
東
廣
灣
Ί
立
ٸ
益
ï
ṅ
최
μ
원
ὶ
厥
è
Ê
鲁
ໄ
⁉
Ý
জ
電
٩
ӣ
է
原
હ
俊
、
节
제
ڕ
‚
損
ლ
慰
ऊ
Д
兎
î
ΐ
条
ਭ
д
能
ক
H
ण
近
ﻄ
ǒ
衛
P
પ
ਚ
約
ܘ
न
源
ë
時
N
ਘ
有
ĭ
ἄ
Ἁ
朝
अ
臥
滿
親
삼
Ș
眉
տ
ﻳ
զ
轮
便
ṯ
重
œ
健
અ
준
ស
発
ɹ
︶
ಕ
ግ
Ἓ
ₑ
皇
ۍ
ı
>
Ƥ
ⲉ
ﻝ
ᠨ
脱
り
經
穆
厚
வ
з
փ
ﻀ
п
Ώ
ﺋ
ﺱ
商
হ
想
常
գ
国
ት
ર
力
ュ
J
ῖ
ṛ
濱
Å
ध
ʼ
部
耕
上
ﯙ
ṃ
ｲ
ľ
Ĵ
联
ם
ラ
熹
Ư
ⵉ
ỷ
ﻱ
Ṣ
Հ
⟨
ᾶ
ю
a
鈴
味
达
本
ϒ
信
Н
筒
נ
ã
画
ﻢ
ά
ﭙ
ﭼ
ቆ
ё
ह
⟩
業
ä
ڼ
ס
ម
ﻣ
寛
κ
à
ڔ
년
宗
ț
な
耀
都
ə
ﺭ
Β
ă
જ
ḯ
Þ
j
ί
ܡ
ﻋ
ή
s
Ń
^
脩
宝
訓
Μ
ⵔ
网
Ẓ
ত
ℓ
ร
İ
ὐ
რ
Ñ
種
ɣ
夏
ṣ
ప
Ḿ
T
א
Ĥ
ᠦ
啟
昆
ষ
深
ส
Ј
浜
ﺟ
ὔ
?
Ք
莊
ﻕ
Ἠ
际
პ
ź
ტ
)
ਬ
ݝ
ȳ
世
が
長
”
ዘ
ǹ
Χ
ۆ
Բ
朱
庆
閻
ⵣ
‡
禄
Ē
體
đ
ḧ
薬
ܣ
য
ក
Զ
技
δ
인
う
ज
田
Ә
և
ﻘ
′
Ů
作
Г
Ḥ
щ
高
ہ
द
ꦗ
ڵ
आ
٭
χ
խ
ܝ
黃
區
ό
九
ٹ
多
च
係
典
র
鎌
Ĉ
極
צ
ö
太
ய
ञ
í
ղ
Ἄ
ɔ
ヌ
ש
果
ધ
v
子
ﺶ
ﺝ
台
ø
突
υ
ﮕ
周
ḿ
威
论
വ
շ
影
溥
Յ
陳
µ
٧
5
ч
：
ɢ
恩
ﻴ
戦
έ
윤
;
ਹ
ە
Ü
話
՞
١
候
전
ழ
ß
球
Ш
ÿ
皐
의
Ɵ
グ
と
康
ٲ
ἰ
ક
ढ
მ
ת
ﻑ
ʹ
野
І
օ
夢
ひ
ց
ἅ
গ
帝
ڟ
ᠵ
ର
Ḍ
Ἡ
紙
住
ល
å
ﮎ
弓
Î
自
プ
ਸ
功
Ғ
Լ
x
ᴄ
ﭘ
ψ
ẘ
ç
[
ḳ
위
ā
ﻤ
٦
君
т
﴿
현
嶋
ҡ
i
ม
উ
부
卧
ḓ
ચ
紀
Ἅ
―
ʌ
హ
藏
納
Գ
{
ﺌ
ʄ
ɬ
Ā
я
യ
北
ო
ጵ
ẗ
た
ﺏ
ě
ד
ﻉ
ʋ
સ
ﺬ
ɐ
ふ
や
ᠡ
る
ܠ
将
ი
懿
手
隊
γ
ኢ
ݟ
鄭
म
స
永
…
ウ
ɑ
効
圳
ﻖ
p
ড
Ὀ
м
대
群
ര
ย
ғ
五
ந
٪
名
ﻻ
ꦤ
ハ
ܕ
Ф
_
ﻗ
ℳ
ग
Ƈ
ಮ
»
ᠠ
浙
Ř
品
ऋ
य
ὕ
ۻ
ξ
ώ
和
Т
ȷ
ວ
ה
亭
ヨ
石
V
ん
ܫ
Ō
光
争
饼
ﺘ
Ю
ʁ
ܢ
ᾷ
н
ই
애
ﭬ
ս
れ
機
来
利
ь
麗
棣
ᠲ
ﺩ
Ω
ڬ
ド
𐭫
ﻏ
ﻭ
р
ؤ
B
て
枢
ﺞ
昭
横
Ś
队
ﺢ
R
Ἕ
伏
ಜ
ﮏ
𐭩
ɚ
Л
洵
—
F
ʻ
Ἔ
ન
=
‰
俱
ਲ
ẏ
瑪
ﺎ
Ø
为
Σ
議
埼
ḁ
下
年
天
ն
Ο
ɸ
ら
Ս
ъ
ﭐ
テ
Υ
ḏ
ォ
局
族
ט
暦
খ
ф
ρ
鹿
ን
Р
ú
棋
Я
足
Պ
–
ท
东
ﺐ
ਖ
ץ
ו
ច
э
₂
Ἀ
经
מ
ň
ﻊ
r
ջ
ے
林
死
业
অ
Ó
ャ
회
<
蘇
四
ﭪ
ῆ
פ
Ú
ﭻ
龍
ǔ
f
片
製
주
隅
ן
ẓ
ז
𐭠
}
ڨ
U
മ
ћ
ɾ
𐭯
ც
ﺴ
Ά
ต
ﻫ
妃
河
Ɑ
ก
渤
姫
ﻦ
Е
ڑ
徽
ത
ソ
Ù
ﺡ
ვ
ጣ
字
ጠ
Λ
‘
ﮔ
ஆ
斗
¹
〗
キ
ﺅ
寿
き
術
科
ₕ
Δ
色
ন
ˌ
ะ
һ
古
津
ὴ
ῥ
শ
ʃ
ܒ
勝
ᠬ
‹
ს
٢
Ć
ち
ય
タ
ძ
漱
թ
ệ
ﮪ
q
ອ
ـ
Ҳ
杉
ⲙ
カ
Ɋ
序
ﺖ
イ
క
성
ń
¾
場
մ
Ҡ
ゅ
ڤ
綺
강
ভ
卦
マ
θ
様
ﮐ
ᠯ
Ա
А
,
家
Ծ
थ
|
ῳ
聖
Թ
ⵓ
ط
а
ਣ
維
ː
爾
ұ
ィ
ₚ
ਕ
Ə
յ
ɕ
ձ
민
沖
b
ռ
ҫ
Ϸ
d
ﻆ
भ
Х
\
ἐ
0
ܛ
ˈ
ള
Ä
乐
明
諸
ທ
辰
徳
қ
र
ڃ
ϥ
і
ゐ
同
ﻂ
식
國
स
α
Κ
棍
Ž
त
Ľ
ʝ
え
婦
გ
Ξ
ʘ
お
涅
Y
지
ₙ
土
Α
घ
٠
ภ
》
ნ
ඝ
ﺧ
早
¿
木
す
Ö
ខ
ﺕ
չ
母
德
ⵖ
コ
β
⅓
о
ⵜ
座
أ
百
珠
Ж
ﻡ
٥
ꦒ
ぐ
k
ゑ
控
ﺽ
春
8
通
デ
λ
樂
ɋ
ճ
ì
ۀ
児
度
Ī
l
ﴽ
պ
师
б
ŷ
島
ῴ
新
n
ণ
ਤ
일
ﯿ
海
ല
哈
覧
무
Ψ
ծ
玛
ę
ٮ
ң
Τ
鮨
ւ
ル
ẙ
蘭
戊
ﻲ
*
Æ
根
ﻥ
ன
月
定
代
ף
ফ
Ἴ
광
治
Ղ
е
宁
조
ガ
ष
ṭ
ᠢ
星
体
ﭽ
ר
江
แ
白
ຍ
ˤ
ē
티
株
പ
Η
이
ﺸ
司
ꦮ
Θ
О
一
限
Խ
盆
ע
ई
л
ἑ
Ἰ
ὀ
ర
Ç
؟
武
ช
ὁ
ټ
ŋ
寇
М
প
इ
ٱ
릉
Γ
藤
ө
Ð
к
‼
仮
ბ
青
말
ರ
З
ò
ꦥ
٫
ქ
ἁ
殷
丘
김
ў
ン
ῦ
አ
K
社
的
ຕ
ੜ
ケ
ಠ
ꦠ
狗
生
見
地
王
泻
ɒ
ख
（
7
ї
Ө
广
ⴰ
†
ֆ
い
ۓ
ƈ
श
サ
h
ո
十
柴
׃
@
È
ܚ
ກ
Đ
团
ব
ठ
思
水
თ
Έ
ஷ
ﻮ
取
空
Č
壯
ž
浄
Ŝ
ⴽ
英
ﻨ
六
ਨ
ō
车
洗
영
‿
動
ĝ
ﺒ
旦
安
국
Ε
崎
豊
Π
圓
ﮑ
ட
비
ý
ʲ
会
马
ଲ
三
ś
ਡ
й
Ռ
竹
e
9
с
ɓ
彦
ğ
ۺ
Ҙ
ა
理
ի
稲
ḍ
선
ñ
ﺀ
ล
ホ
〽
ল
ʾ
ﮓ
宮
ﻠ
泥
Ǥ
រ
レ
清
エ
ê
ګ
ɲ
《
Á
份
元
Օ
基
ˆ
玉
정
覇
音
ե
成
י
화
ゾ
વ
セ
Ν
ɛ
ύ
Q
ਮ
岸
越
Ǹ
股
ধ
ܪ
ʔ
ษ
錕
ٴ
z
վ
简
第
亚
შ
鳥
症
市
Ո
秋
龙
截
Ă
க
ﺵ
し
ম
ண
ʐ
慶
“
临
络
é
ʰ
ք
ꦭ
合
繁
ј
S
京
ү
Û
Õ
ﷲ
æ
晨
ʒ
â
ڌ
優
州
আ
統
দ
À
ﻛ
ﻚ
Қ
語
у
ݚ
ᐤ
ଉ
·
ἀ
ゞ
ⵎ
ɖ
陸
ﻟ
ʷ
ц
ዮ
Ƞ
ڎ
ą
ᾱ
ﺼ
菱
航
※
Ժ
も
ṧ
南
洋
ẖ
+
県
/
李
E
モ
ム
ǐ
φ
Ч
č
續
ܩ
ச
ۃ
唐
औ
구
ﺗ
ǰ
ӕ
軸
香
o
ɡ
ܥ
ι
ᠺ
𐭪
拳
章
华
Φ
ஐ
డ
楽
Ɗ
ח
õ
川
В
۰
映
า
の
산
ω
મ
ṓ
ⲛ
井
ր
ﺔ
ღ
昶
٨
ッ
團
ー
٬
η
ョ
車
所
Ү
ų
𐭮
É
パ
झ
ஸ
С
义
ア
式
Z
潤
ĉ
ҷ
ʎ
際
ɨ
ਰ
§
ʺ
阪
ἶ
क
縛
A
도
բ
ﺍ
剛
ɴ
花
ไ
ڐ
ʿ
ċ
ܨ
縄
ş
~
К
ő
ﮒ
כ
個
ビ
ゲ
ى
学
장
ﺿ
电
ஜ
ۊ
๑
ລ
ગ
ﺪ
ế
屋
者
リ
広
ێ
ʊ
